<unk>	0
en	-0
▁d	-1
er	-2
es	-3
▁a	-4
▁s	-5
in	-6
▁t	-7
on	-8
▁p	-9
▁l	-10
▁c	-11
ch	-12
an	-13
re	-14
un	-15
▁m	-16
is	-17
▁de	-18
▁w	-19
ou	-20
ar	-21
▁e	-22
qu	-23
it	-24
as	-25
or	-26
ie	-27
▁n	-28
ent	-29
▁th	-30
os	-31
at	-32
▁h	-33
▁qu	-34
▁v	-35
▁un	-36
▁f	-37
▁b	-38
al	-39
te	-40
▁es	-41
le	-42
▁que	-43
om	-44
▁g	-45
▁i	-46
▁o	-47
▁in	-48
us	-49
▁the	-50
▁la	-51
▁y	-52
ur	-53
ci	-54
ti	-55
ro	-56
▁en	-57
▁an	-58
ad	-59
ir	-60
ll	-61
▁S	-62
ich	-63
▁se	-64
ra	-65
ing	-66
ve	-67
▁to	-68
▁j	-69
am	-70
de	-71
ig	-72
ion	-73
ab	-74
il	-75
et	-76
ous	-77
▁re	-78
em	-79
▁est	-80
ic	-81
el	-82
▁con	-83
our	-84
▁com	-85
▁is	-86
▁le	-87
▁and	-88
▁die	-89
▁r	-90
id	-91
▁et	-92
ed	-93
▁ein	-94
▁und	-95
▁z	-96
ut	-97
▁A	-98
ol	-99
▁of	-100
▁E	-101
▁par	-102
ten	-103
ers	-104
▁I	-105
▁el	-106
▁no	-107
um	-108
▁k	-109
▁be	-110
▁al	-111
ta	-112
im	-113
▁M	-114
▁so	-115
▁des	-116
▁di	-117
and	-118
ter	-119
ce	-120
▁das	-121
ant	-122
▁der	-123
ier	-124
00	-125
▁L	-126
est	-127
▁su	-128
ien	-129
▁au	-130
ge	-131
▁D	-132
▁à	-133
▁pro	-134
▁B	-135
ung	-136
ment	-137
▁les	-138
▁ha	-139
▁P	-140
▁T	-141
▁we	-142
▁ne	-143
▁ma	-144
tr	-145
▁é	-146
ón	-147
▁me	-148
ere	-149
▁zu	-150
end	-151
▁pr	-152
ul	-153
▁on	-154
▁W	-155
ans	-156
▁ist	-157
me	-158
ber	-159
ons	-160
hr	-161
▁C	-162
▁lo	-163
▁sa	-164
▁ch	-165
ue	-166
▁it	-167
ens	-168
▁ich	-169
ct	-170
▁you	-171
▁wir	-172
▁wh	-173
au	-174
▁G	-175
▁pas	-176
▁as	-177
ke	-178
▁F	-179
▁pl	-180
▁Sie	-181
ow	-182
der	-183
icht	-184
▁je	-185
st	-186
▁for	-187
▁tr	-188
ess	-189
▁er	-190
▁los	-191
▁H	-192
iv	-193
mp	-194
ly	-195
▁hab	-196
pp	-197
ff	-198
lich	-199
que	-200
tre	-201
ib	-202
▁fa	-203
ort	-204
▁K	-205
ne	-206
ine	-207
▁N	-208
▁ex	-209
ient	-210
ay	-211
ción	-212
▁was	-213
out	-214
den	-215
ver	-216
ür	-217
▁por	-218
▁il	-219
▁u	-220
gen	-221
▁sie	-222
▁R	-223
ía	-224
iss	-225
ill	-226
és	-227
0000	-228
ach	-229
▁ver	-230
ado	-231
▁von	-232
he	-233
▁J	-234
ck	-235
▁den	-236
pe	-237
▁he	-238
▁son	-239
▁mo	-240
▁una	-241
▁ce	-242
to	-243
▁don	-244
ind	-245
▁une	-246
▁si	-247
pr	-248
▁um	-249
▁per	-250
do	-251
tion	-252
ente	-253
lo	-254
▁V	-255
ire	-256
th	-257
chen	-258
ér	-259
▁las	-260
▁U	-261
▁po	-262
ux	-263
▁pe	-264
▁auf	-265
▁all	-266
if	-267
▁do	-268
ag	-269
▁ge	-270
▁ent	-271
ann	-272
▁qui	-273
che	-274
▁du	-275
ap	-276
▁ab	-277
▁ser	-278
▁sur	-279
▁av	-280
▁gr	-281
se	-282
▁wie	-283
ith	-284
men	-285
ás	-286
▁tra	-287
▁cu	-288
co	-289
ces	-290
▁für	-291
▁war	-292
ht	-293
go	-294
▁als	-295
▁or	-296
▁st	-297
▁go	-298
▁O	-299
▁us	-300
ando	-301
und	-302
enn	-303
ld	-304
▁at	-305
▁dé	-306
▁mit	-307
la	-308
ud	-309
ist	-310
res	-311
du	-312
io	-313
▁ac	-314
ate	-315
be	-316
iz	-317
ure	-318
▁del	-319
ese	-320
ions	-321
▁fr	-322
hen	-323
▁man	-324
per	-325
ia	-326
▁are	-327
uch	-328
▁vo	-329
ive	-330
ma	-331
▁pu	-332
▁ave	-333
nen	-334
▁ou	-335
ais	-336
ts	-337
▁sch	-338
▁dem	-339
▁co	-340
ante	-341
ple	-342
bre	-343
▁jus	-344
cion	-345
aus	-346
ah	-347
▁im	-348
▁Un	-349
iel	-350
té	-351
all	-352
we	-353
▁ar	-354
ac	-355
ite	-356
▁dis	-357
▁res	-358
▁ve	-359
mo	-360
én	-361
▁uh	-362
for	-363
▁ob	-364
▁aus	-365
▁Z	-366
▁imp	-367
▁li	-368
▁mon	-369
mer	-370
▁más	-371
ard	-372
ted	-373
▁can	-374
ait	-375
▁An	-376
ins	-377
▁pre	-378
cer	-379
▁not	-380
able	-381
ang	-382
▁som	-383
▁wer	-384
ies	-385
urs	-386
▁te	-387
ose	-388
▁ré	-389
ould	-390
über	-391
ben	-392
▁but	-393
od	-394
ée	-395
amos	-396
ze	-397
ug	-398
▁uns	-399
ight	-400
uer	-401
▁ten	-402
▁cl	-403
▁kn	-404
ally	-405
idad	-406
▁am	-407
pl	-408
av	-409
ön	-410
tic	-411
▁hat	-412
ance	-413
ici	-414
ord	-415
bl	-416
ip	-417
▁mar	-418
ada	-419
▁ra	-420
▁Le	-421
uest	-422
▁In	-423
ign	-424
ère	-425
sen	-426
cia	-427
ido	-428
ven	-429
vez	-430
jo	-431
hn	-432
cu	-433
con	-434
▁sh	-435
être	-436
cl	-437
are	-438
gr	-439
▁Es	-440
▁Sch	-441
ft	-442
ide	-443
amb	-444
tes	-445
ors	-446
▁sol	-447
ité	-448
▁La	-449
ise	-450
ales	-451
vo	-452
tait	-453
fer	-454
▁En	-455
ale	-456
▁sp	-457
án	-458
▁app	-459
ero	-460
ès	-461
▁Re	-462
▁kön	-463
ble	-464
elle	-465
ica	-466
▁cre	-467
▁Y	-468
▁fin	-469
etz	-470
▁one	-471
▁ah	-472
tra	-473
ok	-474
▁dur	-475
än	-476
ille	-477
mes	-478
ity	-479
▁Ich	-480
▁her	-481
ink	-482
▁gen	-483
ai	-484
▁fo	-485
▁has	-486
par	-487
les	-488
age	-489
tig	-490
▁ye	-491
je	-492
▁tod	-493
og	-494
▁car	-495
▁'	-496
▁cas	-497
▁cr	-498
cr	-499
▁¿	-500
▁Il	-501
▁ad	-502
ong	-503
▁Er	-504
int	-505
▁pos	-506
▁Ar	-507
ique	-508
ents	-509
▁Be	-510
▁reg	-511
kt	-512
▁así	-513
va	-514
ela	-515
▁aut	-516
uy	-517
ora	-518
ahr	-519
ette	-520
uro	-521
onn	-522
▁ont	-523
ados	-524
▁Ver	-525
her	-526
▁sab	-527
ambi	-528
▁ih	-529
wo	-530
emos	-531
ste	-532
ute	-533
▁my	-534
cha	-535
ot	-536
oy	-537
▁by	-538
ass	-539
uf	-540
▁été	-541
til	-542
▁ter	-543
▁our	-544
ba	-545
▁br	-546
anz	-547
ond	-548
▁bes	-549
ice	-550
▁if	-551
▁oh	-552
▁get	-553
gun	-554
hl	-555
▁bas	-556
▁sus	-557
ther	-558
▁his	-559
ión	-560
form	-561
▁cer	-562
ques	-563
igen	-564
▁ro	-565
▁We	-566
oug	-567
its	-568
ner	-569
ime	-570
▁wor	-571
ui	-572
ick	-573
oup	-574
▁ils	-575
ame	-576
ied	-577
ause	-578
vent	-579
llen	-580
ult	-581
▁Je	-582
uen	-583
▁nos	-584
▁ag	-585
▁mis	-586
era	-587
cti	-588
▁cos	-589
ils	-590
uss	-591
tern	-592
ak	-593
tin	-594
▁pou	-595
ées	-596
▁nur	-597
ense	-598
▁up	-599
▁The	-600
ours	-601
▁tem	-602
▁St	-603
ande	-604
ige	-605
▁wur	-606
ores	-607
▁El	-608
vers	-609
▁out	-610
ik	-611
▁Die	-612
fe	-613
ün	-614
ps	-615
▁pol	-616
▁had	-617
mos	-618
▁mi	-619
eren	-620
▁Se	-621
▁wo	-622
aba	-623
ios	-624
ière	-625
pa	-626
▁pa	-627
▁vie	-628
iert	-629
▁ell	-630
▁fe	-631
▁ke	-632
tro	-633
▁Pro	-634
itu	-635
▁ges	-636
dr	-637
art	-638
ank	-639
ust	-640
cht	-641
ca	-642
une	-643
iter	-644
▁cor	-645
ats	-646
pos	-647
▁emp	-648
▁vor	-649
▁Ge	-650
gra	-651
ros	-652
pt	-653
▁bec	-654
ible	-655
▁bo	-656
▁dev	-657
one	-658
ty	-659
▁ba	-660
ants	-661
ater	-662
ück	-663
▁pue	-664
ras	-665
Qu	-666
▁op	-667
▁eso	-668
ez	-669
fen	-670
▁sí	-671
▁act	-672
gan	-673
hal	-674
ars	-675
▁gro	-676
▁cap	-677
alem	-678
▁Al	-679
cho	-680
▁ces	-681
tru	-682
ida	-683
ät	-684
ain	-685
▁dos	-686
min	-687
aut	-688
ger	-689
orte	-690
▁nat	-691
▁ind	-692
ont	-693
fin	-694
▁peu	-695
ade	-696
ore	-697
ial	-698
iten	-699
cial	-700
▁hom	-701
aux	-702
▁Th	-703
▁min	-704
▁hay	-705
▁zwe	-706
gu	-707
ile	-708
▁may	-709
omm	-710
ph	-711
▁sal	-712
▁how	-713
enta	-714
sch	-715
cess	-716
▁sou	-717
ence	-718
▁vis	-719
pu	-720
▁dar	-721
etzt	-722
▁tro	-723
ges	-724
ême	-725
ast	-726
▁Ges	-727
▁inv	-728
▁cin	-729
▁rec	-730
▁two	-731
tain	-732
▁añ	-733
▁who	-734
▁col	-735
▁sim	-736
tiv	-737
ough	-738
▁mir	-739
ays	-740
ina	-741
▁tun	-742
▁ok	-743
ob	-744
ibt	-745
▁ja	-746
▁nom	-747
▁now	-748
▁Ze	-749
▁men	-750
tim	-751
ör	-752
ings	-753
itt	-754
▁Gr	-755
wer	-756
man	-757
ree	-758
icat	-759
▁Ch	-760
si	-761
▁No	-762
▁ihr	-763
cul	-764
ople	-765
ires	-766
iß	-767
▁Ih	-768
▁Les	-769
▁era	-770
lat	-771
ungs	-772
▁dit	-773
auc	-774
▁Te	-775
▁vra	-776
▁muy	-777
▁wür	-778
▁nue	-779
▁él	-780
▁she	-781
äch	-782
br	-783
▁ir	-784
▁fue	-785
▁sin	-786
▁ya	-787
olog	-788
▁any	-789
ico	-790
zen	-791
ouve	-792
ix	-793
cir	-794
▁med	-795
▁ins	-796
inen	-797
▁cal	-798
ió	-799
erst	-800
▁see	-801
éd	-802
▁mom	-803
cip	-804
bar	-805
▁da	-806
fl	-807
▁ta	-808
▁Qu	-809
▁tou	-810
▁cam	-811
eser	-812
ura	-813
▁tu	-814
▁fam	-815
iste	-816
▁zur	-817
cid	-818
ème	-819
▁mes	-820
▁bet	-821
quí	-822
ded	-823
leg	-824
ior	-825
▁sy	-826
oir	-827
üs	-828
▁ho	-829
▁gut	-830
aire	-831
iene	-832
ace	-833
cher	-834
▁And	-835
no	-836
ual	-837
ms	-838
▁tie	-839
▁So	-840
él	-841
ange	-842
▁va	-843
unt	-844
▁Par	-845
▁tal	-846
lam	-847
duc	-848
iner	-849
▁sag	-850
▁Wir	-851
ento	-852
ures	-853
ler	-854
▁str	-855
uh	-856
tel	-857
ún	-858
▁tom	-859
own	-860
▁He	-861
ule	-862
▁ég	-863
▁dre	-864
eme	-865
▁vol	-866
▁Est	-867
▁bin	-868
▁Et	-869
▁	-870
e	-871
n	-872
a	-873
s	-874
i	-875
t	-876
r	-877
o	-878
u	-879
l	-880
d	-881
c	-882
h	-883
m	-884
p	-885
g	-886
b	-887
f	-888
v	-889
,	-890
w	-891
y	-892
q	-893
é	-894
.	-895
k	-896
z	-897
'	-898
j	-899
S	-900
x	-901
í	-902
ü	-903
E	-904
A	-905
ó	-906
I	-907
M	-908
ä	-909
0	-910
á	-911
L	-912
à	-913
D	-914
T	-915
P	-916
B	-917
-	-918
C	-919
W	-920
G	-921
è	-922
F	-923
H	-924
ö	-925
N	-926
R	-927
K	-928
U	-929
J	-930
V	-931
ê	-932
?	-933
O	-934
ß	-935
ñ	-936
Z	-937
ú	-938
’	-939
Y	-940
¿	-941
Q	-942
ç	-943
ô	-944
û	-945
ù	-946
î	-947
â	-948
"	-949
É	-950
œ	-951
Ü	-952
Ä	-953
:	-954
1	-955
X	-956
Ö	-957
ï	-958
À	-959
2	-960
«	-961
;	-962
ë	-963
!	-964
»	-965
Á	-966
9	-967
)	-968
(	-969
¡	-970
Ê	-971
5	-972
3	-973
„	-974
4	-975
8	-976
7	-977
“	-978
6	-979
Ç	-980
/	-981
%	-982
—	-983
Ú	-984
Í	-985
Ó	-986
–	-987
&	-988
Â	-989
Ô	-990
+	-991
È	-992
Ñ	-993
Î	-994
$	-995
‚	-996
€	-997
Œ	-998
‘	-999
ʼ	-1000
°	-1001
[	-1002
š	-1003
]	-1004
`	-1005
­	-1006
ò	-1007
®	-1008
ø	-1009
́	-1010
😎	-1011
£	-1012
æ	-1013
@	-1014
Å	-1015
ć	-1016
õ	-1017
ã	-1018
⁄	-1019
ś	-1020
*	-1021
β	-1022
