##en
d
##er
##es
a
s
##in
t
##on
p
l
c
##ch
##an
##re
##un
m
##is
de
w
##ou
##ar
e
##qu
##it
##as
##or
##ie
n
##ent
th
##os
##at
h
qu
v
un
f
b
##al
##te
es
##le
que
##om
g
i
o
in
##us
the
la
y
##ur
##ci
##ti
##ro
en
an
##ad
##ir
##ll
S
##ich
se
##ra
##ing
##ve
to
j
##am
##de
##ig
##ion
##ab
##il
##et
##ous
re
##em
est
##ic
##el
con
##our
com
is
le
and
die
r
##id
et
##ed
ein
und
z
##ut
A
##ol
of
E
par
##ten
##ers
I
el
no
##um
k
be
al
##ta
##im
M
so
des
di
##and
##ter
##ce
das
##ant
der
##ier
##00
L
##est
su
##ien
au
##ge
D
à
pro
B
##ung
##ment
les
ha
P
T
we
ne
ma
##tr
é
##ón
me
##ere
zu
##end
pr
##ul
on
W
##ans
ist
##me
##ber
##ons
##hr
C
lo
sa
ch
##ue
it
##ens
ich
##ct
you
wir
wh
##au
G
pas
as
##ke
F
pl
Sie
##ow
##der
##icht
je
##st
for
tr
##ess
er
los
H
##iv
##mp
##ly
hab
##pp
##ff
##lich
##que
##tre
##ib
fa
##ort
K
##ne
##ine
N
ex
##ient
##ay
##ción
was
##out
##den
##ver
##ür
por
il
u
##gen
sie
R
##ía
##iss
##ill
##és
##0000
##ach
ver
##ado
von
##he
J
##ck
den
##pe
he
son
mo
una
ce
##to
don
##ind
une
si
##pr
um
per
##do
##tion
##ente
##lo
V
##ire
##th
##chen
##ér
las
U
po
##ux
pe
auf
all
##if
do
##ag
ge
ent
##ann
qui
##che
du
##ap
ab
ser
sur
av
gr
##se
wie
##ith
##men
##ás
tra
cu
##co
##ces
für
war
##ht
##go
als
or
st
go
O
us
##ando
##und
##enn
##ld
at
dé
mit
##la
##ud
##ist
##res
##du
##io
ac
##ate
##be
##iz
##ure
del
##ese
##ions
fr
##hen
man
##per
##ia
are
##uch
vo
##ive
##ma
pu
ave
##nen
ou
##ais
##ts
sch
dem
co
##ante
##ple
##bre
jus
##cion
##aus
##ah
im
Un
##iel
##té
##all
##we
ar
##ac
##ite
dis
res
ve
##mo
##én
uh
##for
ob
aus
Z
imp
li
mon
##mer
más
##ard
##ted
can
##ait
An
##ins
pre
##cer
not
##able
##ang
som
wer
##ies
##urs
te
##ose
ré
##ould
##über
##ben
but
##od
##ée
##amos
##ze
##ug
uns
##ight
##uer
ten
cl
kn
##ally
##idad
am
##pl
##av
##ön
##tic
hat
##ance
##ici
##ord
##bl
##ip
mar
##ada
ra
Le
##uest
In
##ign
##ère
##sen
##cia
##ido
##ven
##vez
##jo
##hn
##cu
##con
sh
##être
##cl
##are
##gr
Es
Sch
##ft
##ide
##amb
##tes
##ors
sol
##ité
La
##ise
##ales
##vo
##tait
##fer
En
##ale
sp
##án
app
##ero
##ès
Re
kön
##ble
##elle
##ica
cre
Y
fin
##etz
one
ah
##tra
##ok
dur
##än
##ille
##mes
##ity
Ich
her
##ink
gen
##ai
fo
has
##par
##les
##age
##tig
ye
##je
tod
##og
car
'
cas
cr
##cr
¿
Il
ad
##ong
Er
##int
pos
Ar
##ique
##ents
Be
reg
##kt
así
##va
##ela
aut
##uy
##ora
##ahr
##ette
##uro
##onn
ont
##ados
Ver
##her
sab
##ambi
ih
##wo
##emos
##ste
##ute
my
##cha
##ot
##oy
by
##ass
##uf
été
##til
ter
our
##ba
br
##anz
##ond
bes
##ice
if
oh
get
##gun
##hl
bas
sus
##ther
his
##ión
##form
cer
##ques
##igen
ro
We
##oug
##its
##ner
##ime
wor
##ui
##ick
##oup
ils
##ame
##ied
##ause
##vent
##llen
##ult
Je
##uen
nos
ag
mis
##era
##cti
cos
##ils
##uss
##tern
##ak
##tin
pou
##ées
nur
##ense
up
The
##ours
tem
St
##ande
##ige
wur
##ores
El
##vers
out
##ik
Die
##fe
##ün
##ps
pol
had
##mos
mi
##eren
Se
wo
##aba
##ios
##ière
##pa
pa
vie
##iert
ell
fe
ke
##tro
Pro
##itu
ges
##dr
##art
##ank
##ust
##cht
##ca
##une
##iter
cor
##ats
##pos
emp
vor
Ge
##gra
##ros
##pt
bec
##ible
bo
dev
##one
##ty
ba
##ants
##ater
##ück
pue
##ras
##Qu
op
eso
##ez
##fen
sí
act
##gan
##hal
##ars
gro
cap
##alem
Al
##cho
ces
##tru
##ida
##ät
##ain
dos
##min
##aut
##ger
##orte
nat
ind
##ont
##fin
peu
##ade
##ore
##ial
##iten
##cial
hom
##aux
Th
min
hay
zwe
##gu
##ile
may
##omm
##ph
sal
how
##enta
##sch
##cess
sou
##ence
vis
##pu
dar
##etzt
tro
##ges
##ême
##ast
Ges
inv
cin
rec
two
##tain
añ
who
col
sim
##tiv
##ough
mir
##ays
##ina
tun
ok
##ob
##ibt
ja
nom
now
Ze
men
##tim
##ör
##ings
##itt
Gr
##wer
##man
##ree
##icat
Ch
##si
No
ihr
##cul
##ople
##ires
##iß
Ih
Les
era
##lat
##ungs
dit
##auc
Te
vra
muy
wür
nue
él
she
##äch
##br
ir
fue
sin
ya
##olog
any
##ico
##zen
##ouve
##ix
##cir
med
ins
##inen
cal
##ió
##erst
see
##éd
mom
##cip
##bar
da
##fl
ta
Qu
tou
cam
##eser
##ura
tu
fam
##iste
zur
##cid
##ème
mes
bet
##quí
##ded
##leg
##ior
sy
##oir
##üs
ho
gut
##aire
##iene
##ace
##cher
And
##no
##ual
##ms
tie
So
##él
##ange
va
##unt
Par
tal
##lam
##duc
##iner
sag
Wir
##ento
##ures
##ler
str
##uh
##tel
##ún
tom
##own
He
##ule
ég
dre
##eme
vol
Est
bin
Et
▁
##e
##n
##a
##s
##i
##t
##r
##o
##u
##l
##d
##c
##h
##m
##p
##g
##b
##f
##v
##,
##w
##y
##q
##é
##.
##k
##z
##'
##j
##S
##x
##í
##ü
##E
##A
##ó
##I
##M
##ä
##0
##á
##L
##à
##D
##T
##P
##B
##-
##C
##W
##G
##è
##F
##H
##ö
##N
##R
##K
##U
##J
##V
##ê
##?
##O
##ß
##ñ
##Z
##ú
##’
##Y
##¿
##Q
##ç
##ô
##û
##ù
##î
##â
##"
##É
##œ
##Ü
##Ä
##:
##1
##X
##Ö
##ï
##À
##2
##«
##;
##ë
##!
##»
##Á
##9
##)
##(
##¡
##Ê
##5
##3
##„
##4
##8
##7
##“
##6
##Ç
##/
##%
##—
##Ú
##Í
##Ó
##–
##&
##Â
##Ô
##+
##È
##Ñ
##Î
##$
##‚
##€
##Œ
##‘
##ʼ
##°
##[
##š
##]
##`
##­
##ò
##®
##ø
##́
##😎
##£
##æ
##@
##Å
##ć
##õ
##ã
##⁄
##ś
##*
##β
