<unk>	0
▁t	-0
▁a	-1
en	-2
es	-3
er	-4
▁s	-5
▁th	-6
▁d	-7
▁c	-8
▁p	-9
▁l	-10
in	-11
on	-12
▁m	-13
or	-14
os	-15
ar	-16
an	-17
▁the	-18
as	-19
▁h	-20
▁de	-21
▁w	-22
re	-23
is	-24
at	-25
▁n	-26
ue	-27
▁y	-28
▁o	-29
▁e	-30
▁b	-31
it	-32
▁f	-33
al	-34
ad	-35
ent	-36
▁q	-37
un	-38
▁es	-39
▁to	-40
▁an	-41
ci	-42
ed	-43
▁que	-44
om	-45
▁no	-46
▁in	-47
▁la	-48
ou	-49
▁of	-50
ic	-51
▁and	-52
▁v	-53
▁g	-54
▁en	-55
▁el	-56
▁se	-57
id	-58
ro	-59
am	-60
le	-61
ing	-62
▁un	-63
us	-64
▁I	-65
▁con	-66
ll	-67
▁ha	-68
▁re	-69
im	-70
ec	-71
ve	-72
ra	-73
▁is	-74
▁est	-75
▁al	-76
▁com	-77
ion	-78
ol	-79
ut	-80
do	-81
ig	-82
ch	-83
ir	-84
▁you	-85
▁me	-86
res	-87
te	-88
▁wh	-89
ta	-90
ón	-91
▁los	-92
▁su	-93
il	-94
▁por	-95
▁par	-96
▁it	-97
ab	-98
ur	-99
▁be	-100
▁lo	-101
▁not	-102
ay	-103
em	-104
ere	-105
▁per	-106
ce	-107
ía	-108
th	-109
▁as	-110
ien	-111
▁for	-112
tr	-113
ter	-114
to	-115
if	-116
iv	-117
▁on	-118
ith	-119
el	-120
ado	-121
▁mu	-122
▁las	-123
ul	-124
ow	-125
▁le	-126
ente	-127
od	-128
▁pro	-129
▁was	-130
ct	-131
ill	-132
▁T	-133
ción	-134
▁we	-135
▁cu	-136
▁so	-137
▁go	-138
▁del	-139
▁he	-140
▁r	-141
ke	-142
▁una	-143
▁ex	-144
▁or	-145
ant	-146
▁qu	-147
ver	-148
ia	-149
▁j	-150
ly	-151
ás	-152
▁are	-153
est	-154
and	-155
▁si	-156
▁A	-157
la	-158
pe	-159
▁do	-160
que	-161
ier	-162
▁ver	-163
▁des	-164
ud	-165
▁Th	-166
io	-167
um	-168
▁ch	-169
et	-170
▁fr	-171
go	-172
ld	-173
ist	-174
▁k	-175
ib	-176
qu	-177
▁S	-178
lo	-179
▁but	-180
▁tr	-181
▁pr	-182
de	-183
se	-184
ici	-185
ando	-186
▁ent	-187
co	-188
ada	-189
▁te	-190
use	-191
era	-192
iz	-193
▁E	-194
▁C	-195
▁at	-196
ces	-197
ers	-198
▁yo	-199
ive	-200
ues	-201
end	-202
▁más	-203
▁has	-204
▁ac	-205
▁st	-206
▁all	-207
igh	-208
▁ne	-209
▁M	-210
▁res	-211
▁di	-212
▁bec	-213
▁ser	-214
ort	-215
▁sh	-216
pa	-217
ple	-218
ore	-219
▁man	-220
ido	-221
▁co	-222
st	-223
ause	-224
▁mi	-225
▁ab	-226
▁im	-227
ust	-228
▁ar	-229
ate	-230
all	-231
▁his	-232
ag	-233
cion	-234
▁hab	-235
mo	-236
ies	-237
▁sí	-238
▁ten	-239
ould	-240
▁kn	-241
idad	-242
ect	-243
▁li	-244
ica	-245
▁can	-246
án	-247
▁The	-248
und	-249
▁am	-250
▁sa	-251
po	-252
▁H	-253
▁ad	-254
▁bu	-255
ome	-256
▁po	-257
per	-258
▁P	-259
▁ah	-260
▁my	-261
▁car	-262
cia	-263
ento	-264
amb	-265
ity	-266
aj	-267
ther	-268
▁if	-269
▁ag	-270
ero	-271
ight	-272
ma	-273
so	-274
▁tod	-275
én	-276
▁one	-277
ap	-278
▁ap	-279
▁who	-280
▁pre	-281
▁by	-282
▁don	-283
ez	-284
amos	-285
▁gr	-286
aba	-287
▁cas	-288
▁wor	-289
bre	-290
▁em	-291
▁pe	-292
▁ya	-293
▁cl	-294
▁L	-295
ca	-296
ous	-297
ame	-298
▁dis	-299
ie	-300
▁had	-301
▁pas	-302
ados	-303
uer	-304
▁pue	-305
ico	-306
con	-307
▁ma	-308
ven	-309
ess	-310
▁tra	-311
our	-312
ante	-313
▁son	-314
cho	-315
ién	-316
ions	-317
▁pl	-318
ales	-319
ose	-320
▁muy	-321
ment	-322
ens	-323
▁tw	-324
ost	-325
port	-326
▁mar	-327
▁sus	-328
▁cre	-329
ora	-330
cer	-331
ión	-332
ge	-333
▁sin	-334
▁mis	-335
du	-336
▁pa	-337
cu	-338
▁fa	-339
▁B	-340
out	-341
▁mo	-342
gh	-343
ard	-344
▁cr	-345
▁D	-346
▁her	-347
ck	-348
pl	-349
ich	-350
ine	-351
uro	-352
ios	-353
oy	-354
ech	-355
▁him	-356
ice	-357
▁us	-358
ub	-359
▁hay	-360
▁eso	-361
ió	-362
▁Y	-363
▁yes	-364
one	-365
ok	-366
▁W	-367
ida	-368
▁sol	-369
▁ro	-370
enta	-371
jo	-372
▁fin	-373
orm	-374
eno	-375
▁dos	-376
▁pol	-377
ide	-378
▁sal	-379
ina	-380
▁sea	-381
▁qué	-382
tra	-383
▁af	-384
ber	-385
ual	-386
fer	-387
▁ob	-388
ink	-389
▁fue	-390
cl	-391
ores	-392
ime	-393
▁F	-394
ian	-395
ear	-396
son	-397
▁eh	-398
emos	-399
ated	-400
emp	-401
▁ta	-402
▁ti	-403
cial	-404
▁G	-405
▁N	-406
ult	-407
ong	-408
▁nos	-409
ure	-410
▁lle	-411
és	-412
ot	-413
ord	-414
▁two	-415
ough	-416
int	-417
iene	-418
up	-419
par	-420
▁see	-421
gu	-422
▁pod	-423
▁say	-424
▁act	-425
ast	-426
▁peo	-427
ble	-428
aron	-429
ish	-430
▁así	-431
▁era	-432
ans	-433
▁cor	-434
unt	-435
ip	-436
▁It	-437
▁fo	-438
▁ni	-439
▁tan	-440
able	-441
ree	-442
ug	-443
▁col	-444
tros	-445
ís	-446
man	-447
▁ll	-448
▁R	-449
▁inf	-450
▁dif	-451
▁out	-452
ún	-453
▁tu	-454
ady	-455
▁ca	-456
▁op	-457
gr	-458
pres	-459
red	-460
▁med	-461
vo	-462
dad	-463
▁mad	-464
ied	-465
ito	-466
tro	-467
▁reg	-468
▁sab	-469
ical	-470
les	-471
▁añ	-472
ach	-473
▁cos	-474
ath	-475
ita	-476
eces	-477
▁ve	-478
▁did	-479
ese	-480
▁how	-481
▁uno	-482
▁An	-483
za	-484
ían	-485
▁pos	-486
cr	-487
ty	-488
ign	-489
gun	-490
▁He	-491
▁ter	-492
▁é	-493
tern	-494
▁J	-495
av	-496
▁O	-497
ase	-498
ible	-499
▁br	-500
baj	-501
ays	-502
very	-503
pos	-504
los	-505
ac	-506
▁ra	-507
▁fe	-508
▁mon	-509
ings	-510
pr	-511
▁tal	-512
ary	-513
pon	-514
▁nue	-515
ater	-516
br	-517
▁señ	-518
ga	-519
▁fam	-520
▁bo	-521
▁mil	-522
tes	-523
ura	-524
ener	-525
ance	-526
ite	-527
ced	-528
▁ins	-529
▁men	-530
▁deb	-531
art	-532
▁rec	-533
HH	-534
itt	-535
pp	-536
▁fir	-537
adas	-538
▁may	-539
ías	-540
da	-541
▁its	-542
ino	-543
ena	-544
car	-545
der	-546
▁ind	-547
▁U	-548
▁cam	-549
king	-550
ile	-551
▁ci	-552
▁any	-553
me	-554
pan	-555
▁gre	-556
cul	-557
▁gu	-558
ence	-559
og	-560
ana	-561
pt	-562
den	-563
▁now	-564
ds	-565
▁sé	-566
ba	-567
igo	-568
▁ese	-569
▁inv	-570
▁él	-571
pañ	-572
▁mom	-573
ks	-574
▁vis	-575
no	-576
▁ay	-577
▁up	-578
gan	-579
ones	-580
▁V	-581
▁cal	-582
ario	-583
uest	-584
▁fu	-585
▁min	-586
itu	-587
ias	-588
lic	-589
va	-590
▁our	-591
▁va	-592
tain	-593
▁she	-594
▁ven	-595
ient	-596
aban	-597
urn	-598
ras	-599
ial	-600
ctor	-601
▁gra	-602
▁cin	-603
quí	-604
uel	-605
cias	-606
▁cer	-607
▁ok	-608
▁And	-609
cre	-610
▁z	-611
ít	-612
▁new	-613
▁ir	-614
ents	-615
ally	-616
ain	-617
echo	-618
▁seg	-619
▁In	-620
ten	-621
aro	-622
▁def	-623
▁có	-624
tin	-625
ín	-626
cis	-627
ano	-628
▁dem	-629
ama	-630
ild	-631
untr	-632
idos	-633
▁get	-634
▁val	-635
▁esa	-636
▁pla	-637
▁aut	-638
▁cab	-639
▁han	-640
ious	-641
▁nat	-642
▁exp	-643
▁mej	-644
ave	-645
atro	-646
▁ej	-647
▁día	-648
cir	-649
▁hom	-650
▁day	-651
▁vez	-652
ular	-653
alm	-654
cha	-655
▁str	-656
empo	-657
ates	-658
min	-659
▁hum	-660
row	-661
orn	-662
▁hi	-663
ked	-664
ved	-665
▁vol	-666
▁Un	-667
age	-668
▁mal	-669
▁put	-670
▁sub	-671
ts	-672
tim	-673
▁ev	-674
eros	-675
itar	-676
▁tú	-677
▁bar	-678
▁bet	-679
ivo	-680
ista	-681
ire	-682
▁mí	-683
▁mas	-684
ife	-685
ren	-686
aliz	-687
ors	-688
▁rel	-689
fect	-690
uego	-691
ño	-692
fore	-693
▁ref	-694
ang	-695
▁cap	-696
ara	-697
▁dar	-698
▁er	-699
cid	-700
jos	-701
▁tem	-702
ja	-703
00	-704
cio	-705
cur	-706
▁spe	-707
▁na	-708
icos	-709
ador	-710
ress	-711
▁mun	-712
iste	-713
▁bus	-714
ep	-715
▁esc	-716
▁Ch	-717
▁ahí	-718
▁Wh	-719
ears	-720
▁lib	-721
arse	-722
▁dur	-723
ory	-724
pu	-725
▁ba	-726
ece	-727
▁vi	-728
▁mat	-729
ms	-730
ph	-731
▁vo	-732
▁hel	-733
ind	-734
med	-735
▁gus	-736
own	-737
▁tre	-738
▁ret	-739
iera	-740
▁da	-741
ves	-742
▁lu	-743
igu	-744
▁En	-745
endo	-746
cil	-747
▁les	-748
▁ph	-749
sion	-750
▁imp	-751
we	-752
ato	-753
ways	-754
▁bl	-755
ys	-756
je	-757
vor	-758
icas	-759
▁end	-760
▁cur	-761
iar	-762
vis	-763
ific	-764
▁fl	-765
▁var	-766
pués	-767
▁ust	-768
udad	-769
ña	-770
▁pal	-771
jer	-772
tras	-773
▁ano	-774
▁Es	-775
▁six	-776
▁tom	-777
chas	-778
▁jo	-779
▁way	-780
ry	-781
ict	-782
sid	-783
are	-784
▁We	-785
▁El	-786
duc	-787
imes	-788
elf	-789
▁sup	-790
▁sp	-791
mos	-792
▁ho	-793
iva	-794
▁off	-795
vern	-796
▁rep	-797
▁add	-798
▁der	-799
▁pon	-800
▁mod	-801
ior	-802
bar	-803
gar	-804
ft	-805
▁div	-806
imos	-807
▁esp	-808
ér	-809
ily	-810
▁sur	-811
ouse	-812
llo	-813
ata	-814
ives	-815
▁bel	-816
wn	-817
▁rem	-818
ak	-819
fr	-820
▁Yes	-821
lar	-822
cas	-823
▁lot	-824
▁mer	-825
tru	-826
▁ide	-827
▁dej	-828
▁art	-829
ío	-830
▁La	-831
▁hor	-832
bier	-833
ject	-834
ecto	-835
hing	-836
las	-837
oso	-838
▁No	-839
anos	-840
▁sim	-841
ff	-842
ank	-843
▁pel	-844
▁pub	-845
HHHH	-846
▁nom	-847
inci	-848
che	-849
▁leg	-850
ene	-851
▁nor	-852
ugar	-853
▁loc	-854
oria	-855
emás	-856
▁san	-857
▁som	-858
▁viv	-859
▁equ	-860
duct	-861
▁aun	-862
ital	-863
ely	-864
ise	-865
ered	-866
mas	-867
olog	-868
unto	-869
zo	-870
mer	-871
ters	-872
vent	-873
▁ig	-874
bajo	-875
úl	-876
bl	-877
ders	-878
ismo	-879
▁pes	-880
ps	-881
uela	-882
▁fun	-883
▁¿	-884
lla	-885
vel	-886
▁mov	-887
▁	-888
e	-889
a	-890
o	-891
t	-892
s	-893
n	-894
i	-895
r	-896
l	-897
d	-898
u	-899
c	-900
h	-901
m	-902
p	-903
y	-904
g	-905
b	-906
f	-907
v	-908
w	-909
q	-910
,	-911
k	-912
í	-913
.	-914
ó	-915
j	-916
I	-917
á	-918
z	-919
é	-920
x	-921
ñ	-922
'	-923
T	-924
A	-925
S	-926
ú	-927
H	-928
E	-929
C	-930
M	-931
P	-932
L	-933
D	-934
B	-935
Y	-936
W	-937
N	-938
F	-939
G	-940
-	-941
R	-942
O	-943
?	-944
J	-945
U	-946
V	-947
0	-948
"	-949
¿	-950
K	-951
Q	-952
ü	-953
1	-954
:	-955
Z	-956
2	-957
;	-958
Á	-959
X	-960
É	-961
9	-962
5	-963
3	-964
4	-965
%	-966
8	-967
7	-968
6	-969
!	-970
Ó	-971
Í	-972
$	-973
Ú	-974
о	-975
)	-976
(	-977
Ñ	-978
/	-979
ö	-980
ç	-981
è	-982
ê	-983
*	-984
â	-985
à	-986
&	-987
€	-988
Ü	-989
æ	-990
ã	-991
→	-992
ô	-993
[	-994
]	-995
’	-996
ï	-997
š	-998
ł	-999
ä	-1000
Ã	-1001
ć	-1002
ā	-1003
⁄	-1004
ì	-1005
Æ	-1006
达	-1007
😦	-1008
®	-1009
Î	-1010
ß	-1011
î	-1012
ò	-1013
|	-1014
©	-1015
ë	-1016
ă	-1017
ş	-1018
ů	-1019
一	-1020
唯	-1021
õ	-1022
