<unk>	0
er	-0
en	-1
ch	-2
▁t	-3
in	-4
▁a	-5
▁d	-6
▁s	-7
▁w	-8
▁th	-9
nd	-10
es	-11
is	-12
▁h	-13
ie	-14
▁the	-15
on	-16
it	-17
▁m	-18
at	-19
an	-20
ich	-21
re	-22
as	-23
▁b	-24
▁n	-25
or	-26
▁e	-27
te	-28
▁f	-29
ll	-30
ar	-31
▁u	-32
▁g	-33
▁o	-34
▁in	-35
▁.	-36
le	-37
▁S	-38
ou	-39
▁c	-40
▁,	-41
ed	-42
▁I	-43
▁A	-44
al	-45
us	-46
▁p	-47
▁v	-48
▁is	-49
▁to	-50
ig	-51
▁and	-52
▁T	-53
om	-54
▁und	-55
ing	-56
▁D	-57
el	-58
▁of	-59
ir	-60
ur	-61
▁ein	-62
un	-63
▁die	-64
st	-65
▁l	-66
▁be	-67
im	-68
▁z	-69
▁W	-70
et	-71
ion	-72
▁B	-73
ent	-74
▁der	-75
▁ha	-76
ut	-77
em	-78
▁k	-79
▁E	-80
▁M	-81
▁das	-82
▁so	-83
▁no	-84
ter	-85
ra	-86
he	-87
▁H	-88
ro	-89
ein	-90
▁G	-91
ere	-92
gen	-93
▁al	-94
ten	-95
il	-96
ic	-97
▁F	-98
hr	-99
icht	-100
am	-101
▁au	-102
ve	-103
ge	-104
ber	-105
▁y	-106
▁K	-107
ach	-108
id	-109
▁er	-110
▁wh	-111
lich	-112
▁zu	-113
▁an	-114
▁on	-115
▁P	-116
▁j	-117
ben	-118
sch	-119
▁re	-120
ann	-121
ung	-122
▁we	-123
ier	-124
▁st	-125
▁als	-126
▁was	-127
ies	-128
ly	-129
and	-130
▁ist	-131
▁den	-132
▁i	-133
ow	-134
▁you	-135
▁L	-136
▁ich	-137
ol	-138
▁N	-139
ck	-140
▁he	-141
▁R	-142
der	-143
den	-144
th	-145
all	-146
▁se	-147
▁The	-148
ay	-149
de	-150
ith	-151
▁ver	-152
▁it	-153
▁U	-154
au	-155
▁for	-156
ct	-157
▁ge	-158
▁un	-159
▁V	-160
▁wir	-161
ver	-162
ür	-163
▁not	-164
ess	-165
ke	-166
be	-167
ce	-168
ld	-169
▁r	-170
se	-171
▁sch	-172
est	-173
▁im	-174
um	-175
▁es	-176
▁all	-177
chen	-178
ill	-179
▁auf	-180
▁sie	-181
ad	-182
▁mit	-183
ht	-184
ind	-185
op	-186
▁von	-187
if	-188
▁C	-189
we	-190
▁as	-191
hn	-192
ag	-193
▁O	-194
▁J	-195
▁me	-196
▁war	-197
▁ne	-198
▁Z	-199
▁man	-200
ul	-201
▁are	-202
▁Th	-203
▁le	-204
und	-205
▁do	-206
ust	-207
uch	-208
men	-209
enn	-210
os	-211
▁dem	-212
▁wie	-213
▁Sch	-214
aus	-215
▁fr	-216
ain	-217
▁In	-218
ant	-219
▁St	-220
end	-221
oo	-222
ab	-223
ers	-224
▁da	-225
▁hat	-226
ould	-227
ft	-228
ern	-229
ort	-230
▁at	-231
pp	-232
ist	-233
etz	-234
hen	-235
▁mo	-236
qu	-237
▁de	-238
▁sp	-239
▁des	-240
ste	-241
▁com	-242
iv	-243
▁ex	-244
kt	-245
▁con	-246
ib	-247
sen	-248
▁pro	-249
▁aus	-250
ze	-251
hl	-252
▁Die	-253
che	-254
▁ab	-255
ot	-256
oll	-257
▁sa	-258
▁her	-259
iel	-260
▁his	-261
ne	-262
mer	-263
▁had	-264
her	-265
▁Sie	-266
über	-267
▁sh	-268
ff	-269
▁Er	-270
▁Und	-271
▁can	-272
▁für	-273
ted	-274
hm	-275
▁And	-276
▁Be	-277
ally	-278
▁or	-279
▁one	-280
▁So	-281
eine	-282
ang	-283
▁We	-284
art	-285
▁Das	-286
ön	-287
▁He	-288
ive	-289
ert	-290
ate	-291
▁Y	-292
ight	-293
ast	-294
our	-295
▁Ja	-296
igen	-297
ien	-298
ine	-299
▁wor	-300
▁but	-301
▁An	-302
▁vor	-303
▁ja	-304
cht	-305
etzt	-306
▁Al	-307
▁him	-308
▁um	-309
▁wer	-310
ions	-311
nen	-312
ther	-313
ru	-314
▁ch	-315
▁Ver	-316
▁Ich	-317
anz	-318
la	-319
rie	-320
ity	-321
urch	-322
▁by	-323
▁Re	-324
ame	-325
▁now	-326
esch	-327
ik	-328
ure	-329
ass	-330
ome	-331
wo	-332
ese	-333
▁has	-334
▁my	-335
ak	-336
ip	-337
▁who	-338
▁if	-339
sel	-340
ite	-341
▁Ge	-342
ore	-343
▁ent	-344
▁ag	-345
ong	-346
ond	-347
▁uns	-348
▁Un	-349
pt	-350
▁ar	-351
▁ihr	-352
uf	-353
oug	-354
out	-355
ard	-356
ous	-357
alt	-358
ick	-359
ät	-360
▁am	-361
ück	-362
▁su	-363
▁It	-364
ment	-365
▁du	-366
sp	-367
▁Le	-368
iese	-369
ause	-370
▁pr	-371
▁nur	-372
▁tim	-373
ran	-374
▁Der	-375
▁kn	-376
▁qu	-377
one	-378
iß	-379
▁bec	-380
og	-381
ven	-382
ood	-383
▁But	-384
uss	-385
nt	-386
fen	-387
ise	-388
isch	-389
▁Sp	-390
ap	-391
▁Ein	-392
ren	-393
ide	-394
iz	-395
▁mir	-396
ute	-397
me	-398
lle	-399
▁Se	-400
ple	-401
ige	-402
ink	-403
ild	-404
fer	-405
mal	-406
sten	-407
lie	-408
▁ma	-409
▁wur	-410
ound	-411
än	-412
ial	-413
itt	-414
ook	-415
od	-416
▁zwe	-417
▁bei	-418
▁she	-419
▁kön	-420
ün	-421
lo	-422
▁Ar	-423
omm	-424
▁ste	-425
ud	-426
hre	-427
age	-428
ue	-429
iss	-430
▁Es	-431
▁Her	-432
rei	-433
▁dar	-434
are	-435
per	-436
way	-437
▁gen	-438
▁ro	-439
ree	-440
▁fe	-441
ike	-442
scha	-443
acht	-444
▁wo	-445
▁out	-446
▁two	-447
ug	-448
ahr	-449
ely	-450
keit	-451
▁ihn	-452
ger	-453
änd	-454
ör	-455
elt	-456
▁Yes	-457
▁Als	-458
ack	-459
urop	-460
▁go	-461
ord	-462
▁pl	-463
erm	-464
tern	-465
▁zum	-466
▁te	-467
iert	-468
▁Pro	-469
▁Wir	-470
tz	-471
ire	-472
ated	-473
gend	-474
▁us	-475
pr	-476
cc	-477
▁zur	-478
och	-479
orm	-480
able	-481
ect	-482
irst	-483
▁Ze	-484
ater	-485
▁hin	-486
▁en	-487
ice	-488
▁Wh	-489
gt	-490
iter	-491
llen	-492
ble	-493
ull	-494
rau	-495
▁int	-496
ings	-497
▁ihm	-498
▁lie	-499
▁ad	-500
heit	-501
▁yes	-502
▁gew	-503
ian	-504
ibt	-505
ken	-506
▁lo	-507
ear	-508
ish	-509
bl	-510
ry	-511
rat	-512
üs	-513
ult	-514
fe	-515
▁ges	-516
▁ä	-517
very	-518
▁bis	-519
▁po	-520
▁how	-521
ile	-522
lau	-523
du	-524
fter	-525
ner	-526
wer	-527
▁up	-528
ough	-529
ia	-530
fore	-531
▁bet	-532
▁pe	-533
zu	-534
ens	-535
ungs	-536
▁nat	-537
bst	-538
▁Da	-539
ady	-540
rä	-541
är	-542
▁jed	-543
eth	-544
▁gro	-545
ühr	-546
▁act	-547
act	-548
tw	-549
lat	-550
zen	-551
▁gr	-552
▁ir	-553
▁Mit	-554
äch	-555
▁Vor	-556
▁get	-557
▁br	-558
▁sel	-559
▁fin	-560
los	-561
ßen	-562
hal	-563
▁sag	-564
own	-565
▁mal	-566
▁spe	-567
gr	-568
gel	-569
▁?	-570
ign	-571
▁vie	-572
▁tra	-573
▁say	-574
self	-575
chte	-576
▁bes	-577
▁app	-578
reat	-579
▁co	-580
ram	-581
imm	-582
rit	-583
▁did	-584
▁ob	-585
▁Ne	-586
▁Aus	-587
ied	-588
▁any	-589
ount	-590
hmen	-591
▁ra	-592
ges	-593
aut	-594
bar	-595
▁res	-596
▁Te	-597
ahl	-598
ary	-599
ks	-600
▁Men	-601
ase	-602
fach	-603
ha	-604
ople	-605
▁see	-606
ix	-607
ways	-608
▁beg	-609
beit	-610
▁dis	-611
igh	-612
iden	-613
▁kon	-614
▁Auf	-615
▁som	-616
auf	-617
ious	-618
mp	-619
ance	-620
▁You	-621
▁dr	-622
aten	-623
tet	-624
▁sec	-625
▁De	-626
form	-627
ical	-628
land	-629
▁gut	-630
red	-631
▁gle	-632
▁our	-633
ake	-634
tel	-635
old	-636
ts	-637
▁müs	-638
ange	-639
▁Pr	-640
▁Au	-641
ath	-642
▁too	-643
ents	-644
..	-645
▁wel	-646
port	-647
▁Ch	-648
kom	-649
▁Ab	-650
▁dif	-651
pl	-652
▁pos	-653
iger	-654
pe	-655
ark	-656
ces	-657
wn	-658
,,	-659
ible	-660
▁zw	-661
▁pre	-662
ans	-663
eren	-664
ider	-665
fl	-666
▁wä	-667
ved	-668
▁fa	-669
▁mö	-670
▁For	-671
▁bl	-672
▁sol	-673
geb	-674
inn	-675
ors	-676
urn	-677
▁end	-678
esen	-679
nte	-680
▁Ste	-681
▁ger	-682
nis	-683
▁Gr	-684
▁cl	-685
▁dam	-686
▁tr	-687
unkt	-688
▁Fre	-689
ty	-690
lein	-691
▁sm	-692
ife	-693
xt	-694
piel	-695
▁etw	-696
arl	-697
ank	-698
▁Or	-699
▁Ber	-700
ons	-701
▁bo	-702
▁new	-703
ced	-704
▁per	-705
▁bel	-706
uß	-707
▁ind	-708
ob	-709
▁zer	-710
▁Man	-711
eld	-712
▁Um	-713
▁acc	-714
▁ins	-715
▁ser	-716
als	-717
ont	-718
▁kom	-719
ade	-720
bt	-721
ful	-722
▁gem	-723
vers	-724
▁pol	-725
ost	-726
inge	-727
sche	-728
get	-729
▁Ges	-730
hne	-731
▁Ä	-732
blem	-733
fin	-734
▁As	-735
ße	-736
▁fre	-737
les	-738
ph	-739
iten	-740
vel	-741
ißt	-742
▁thr	-743
ory	-744
yste	-745
▁hal	-746
▁rem	-747
rag	-748
teil	-749
▁Wie	-750
its	-751
▁fl	-752
▁Was	-753
ince	-754
ünf	-755
▁gar	-756
▁str	-757
▁She	-758
ale	-759
wie	-760
ves	-761
▁sc	-762
llt	-763
igt	-764
▁wür	-765
▁day	-766
iat	-767
▁gef	-768
▁reg	-769
▁wen	-770
▁mus	-771
ried	-772
▁way	-773
na	-774
▁ze	-775
▁Im	-776
int	-777
▁geh	-778
hren	-779
ict	-780
ac	-781
▁Ü	-782
ster	-783
▁Wo	-784
usam	-785
▁Me	-786
br	-787
▁Fl	-788
gram	-789
olle	-790
cess	-791
▁dec	-792
▁bin	-793
▁sim	-794
▁ele	-795
▁eig	-796
ked	-797
ald	-798
▁Mar	-799
▁nie	-800
▁gra	-801
ng	-802
▁off	-803
orn	-804
oc	-805
▁bra	-806
ient	-807
pen	-808
kl	-809
▁inc	-810
ily	-811
ears	-812
▁Mr	-813
att	-814
itz	-815
▁If	-816
▁Fr	-817
lt	-818
▁rec	-819
ave	-820
ott	-821
▁nun	-822
ep	-823
▁old	-824
▁On	-825
eln	-826
cted	-827
ates	-828
gan	-829
▁Ent	-830
ters	-831
gle	-832
kay	-833
▁let	-834
▁add	-835
agen	-836
ence	-837
▁bit	-838
▁bed	-839
ffen	-840
ual	-841
▁Bl	-842
ose	-843
▁pla	-844
▁num	-845
cken	-846
ler	-847
▁All	-848
day	-849
erst	-850
adt	-851
pro	-852
▁bu	-853
▁hät	-854
▁No	-855
▁gel	-856
▁Kl	-857
▁gl	-858
vor	-859
pan	-860
▁may	-861
bei	-862
▁its	-863
ommt	-864
chn	-865
cial	-866
▁sei	-867
ähr	-868
ss	-869
▁At	-870
ouse	-871
fahr	-872
▁	-873
e	-874
n	-875
i	-876
t	-877
a	-878
r	-879
s	-880
h	-881
o	-882
d	-883
l	-884
u	-885
c	-886
m	-887
g	-888
w	-889
f	-890
,	-891
b	-892
.	-893
p	-894
y	-895
k	-896
v	-897
z	-898
S	-899
I	-900
A	-901
ü	-902
T	-903
D	-904
ä	-905
W	-906
B	-907
E	-908
M	-909
H	-910
G	-911
j	-912
F	-913
K	-914
ö	-915
P	-916
x	-917
L	-918
N	-919
R	-920
ß	-921
U	-922
V	-923
C	-924
O	-925
J	-926
Z	-927
?	-928
q	-929
'	-930
Y	-931
-	-932
Ä	-933
Ü	-934
Q	-935
"	-936
’	-937
X	-938
0	-939
Ö	-940
1	-941
2	-942
:	-943
;	-944
9	-945
5	-946
é	-947
8	-948
3	-949
4	-950
“	-951
7	-952
”	-953
6	-954
%	-955
(	-956
)	-957
/	-958
!	-959
&	-960
è	-961
æ	-962
ł	-963
à	-964
â	-965
ń	-966
$	-967
á	-968
–	-969
ç	-970
‘	-971
ع	-972
β	-973
ó	-974
€	-975
—	-976
→	-977
ô	-978
😛	-979
ï	-980
*	-981
😊	-982
í	-983
ō	-984
+	-985
å	-986
ê	-987
🙂	-988
ě	-989
š	-990
ú	-991
`	-992
[	-993
]	-994
Ã	-995
û	-996
Ś	-997
ś	-998
Š	-999
😦	-1000
£	-1001
¦	-1002
»	-1003
ñ	-1004
ò	-1005
ø	-1006
ā	-1007
č	-1008
œ	-1009
ș	-1010
−	-1011
❤	-1012
^	-1013
Æ	-1014
É	-1015
ã	-1016
ī	-1017
ň	-1018
и	-1019
⁄	-1020
>	-1021
_	-1022
