##er
##en
##ch
t
##in
a
d
s
w
th
##nd
##es
##is
h
##ie
the
##on
##it
m
##at
##an
##ich
##re
##as
b
n
##or
e
##te
f
##ll
##ar
u
g
o
in
.
##le
S
##ou
c
,
##ed
I
A
##al
##us
p
v
is
to
##ig
and
T
##om
und
##ing
D
##el
of
##ir
##ur
ein
##un
die
##st
l
be
##im
z
W
##et
##ion
B
##ent
der
ha
##ut
##em
k
E
M
das
so
no
##ter
##ra
##he
H
##ro
##ein
G
##ere
##gen
al
##ten
##il
##ic
F
##hr
##icht
##am
au
##ve
##ge
##ber
y
K
##ach
##id
er
wh
##lich
zu
an
on
P
j
##ben
##sch
re
##ann
##ung
we
##ier
st
als
was
##ies
##ly
##and
ist
den
i
##ow
you
L
ich
##ol
N
##ck
he
R
##der
##den
##th
##all
se
The
##ay
##de
##ith
ver
it
U
##au
for
##ct
ge
un
V
wir
##ver
##ür
not
##ess
##ke
##be
##ce
##ld
r
##se
sch
##est
im
##um
es
all
##chen
##ill
auf
sie
##ad
mit
##ht
##ind
##op
von
##if
C
##we
as
##hn
##ag
O
J
me
war
ne
Z
man
##ul
are
Th
le
##und
do
##ust
##uch
##men
##enn
##os
dem
wie
Sch
##aus
fr
##ain
In
##ant
St
##end
##oo
##ab
##ers
da
hat
##ould
##ft
##ern
##ort
at
##pp
##ist
##etz
##hen
mo
##qu
de
sp
des
##ste
com
##iv
ex
##kt
con
##ib
##sen
pro
aus
##ze
##hl
Die
##che
ab
##ot
##oll
sa
her
##iel
his
##ne
##mer
had
##her
Sie
##über
sh
##ff
Er
Und
can
für
##ted
##hm
And
Be
##ally
or
one
So
##eine
##ang
We
##art
Das
##ön
He
##ive
##ert
##ate
Y
##ight
##ast
##our
Ja
##igen
##ien
##ine
wor
but
An
vor
ja
##cht
##etzt
Al
him
um
wer
##ions
##nen
##ther
##ru
ch
Ver
Ich
##anz
##la
##rie
##ity
##urch
by
Re
##ame
now
##esch
##ik
##ure
##ass
##ome
##wo
##ese
has
my
##ak
##ip
who
if
##sel
##ite
Ge
##ore
ent
ag
##ong
##ond
uns
Un
##pt
ar
ihr
##uf
##oug
##out
##ard
##ous
##alt
##ick
##ät
am
##ück
su
It
##ment
du
##sp
Le
##iese
##ause
pr
nur
tim
##ran
Der
kn
qu
##one
##iß
bec
##og
##ven
##ood
But
##uss
##nt
##fen
##ise
##isch
Sp
##ap
Ein
##ren
##ide
##iz
mir
##ute
##me
##lle
Se
##ple
##ige
##ink
##ild
##fer
##mal
##sten
##lie
ma
wur
##ound
##än
##ial
##itt
##ook
##od
zwe
bei
she
kön
##ün
##lo
Ar
##omm
ste
##ud
##hre
##age
##ue
##iss
Es
Her
##rei
dar
##are
##per
##way
gen
ro
##ree
fe
##ike
##scha
##acht
wo
out
two
##ug
##ahr
##ely
##keit
ihn
##ger
##änd
##ör
##elt
Yes
Als
##ack
##urop
go
##ord
pl
##erm
##tern
zum
te
##iert
Pro
Wir
##tz
##ire
##ated
##gend
us
##pr
##cc
zur
##och
##orm
##able
##ect
##irst
Ze
##ater
hin
en
##ice
Wh
##gt
##iter
##llen
##ble
##ull
##rau
int
##ings
ihm
lie
ad
##heit
yes
gew
##ian
##ibt
##ken
lo
##ear
##ish
##bl
##ry
##rat
##üs
##ult
##fe
ges
ä
##very
bis
po
how
##ile
##lau
##du
##fter
##ner
##wer
up
##ough
##ia
##fore
bet
pe
##zu
##ens
##ungs
nat
##bst
Da
##ady
##rä
##är
jed
##eth
gro
##ühr
act
##act
##tw
##lat
##zen
gr
ir
Mit
##äch
Vor
get
br
sel
fin
##los
##ßen
##hal
sag
##own
mal
spe
##gr
##gel
?
##ign
vie
tra
say
##self
##chte
bes
app
##reat
co
##ram
##imm
##rit
did
ob
Ne
Aus
##ied
any
##ount
##hmen
ra
##ges
##aut
##bar
res
Te
##ahl
##ary
##ks
Men
##ase
##fach
##ha
##ople
see
##ix
##ways
beg
##beit
dis
##igh
##iden
kon
Auf
som
##auf
##ious
##mp
##ance
You
dr
##aten
##tet
sec
De
##form
##ical
##land
gut
##red
gle
our
##ake
##tel
##old
##ts
müs
##ange
Pr
Au
##ath
too
##ents
##..
wel
##port
Ch
##kom
Ab
dif
##pl
pos
##iger
##pe
##ark
##ces
##wn
##,,
##ible
zw
pre
##ans
##eren
##ider
##fl
wä
##ved
fa
mö
For
bl
sol
##geb
##inn
##ors
##urn
end
##esen
##nte
Ste
ger
##nis
Gr
cl
dam
tr
##unkt
Fre
##ty
##lein
sm
##ife
##xt
##piel
etw
##arl
##ank
Or
Ber
##ons
bo
new
##ced
per
bel
##uß
ind
##ob
zer
Man
##eld
Um
acc
ins
ser
##als
##ont
kom
##ade
##bt
##ful
gem
##vers
pol
##ost
##inge
##sche
##get
Ges
##hne
Ä
##blem
##fin
As
##ße
fre
##les
##ph
##iten
##vel
##ißt
thr
##ory
##yste
hal
rem
##rag
##teil
Wie
##its
fl
Was
##ince
##ünf
gar
str
She
##ale
##wie
##ves
sc
##llt
##igt
wür
day
##iat
gef
reg
wen
mus
##ried
way
##na
ze
Im
##int
geh
##hren
##ict
##ac
Ü
##ster
Wo
##usam
Me
##br
Fl
##gram
##olle
##cess
dec
bin
sim
ele
eig
##ked
##ald
Mar
nie
gra
##ng
off
##orn
##oc
bra
##ient
##pen
##kl
inc
##ily
##ears
Mr
##att
##itz
If
Fr
##lt
rec
##ave
##ott
nun
##ep
old
On
##eln
##cted
##ates
##gan
Ent
##ters
##gle
##kay
let
add
##agen
##ence
bit
bed
##ffen
##ual
Bl
##ose
pla
num
##cken
##ler
All
##day
##erst
##adt
##pro
bu
hät
No
gel
Kl
gl
##vor
##pan
may
##bei
its
##ommt
##chn
##cial
sei
##ähr
##ss
At
##ouse
##fahr
▁
##e
##n
##i
##t
##a
##r
##s
##h
##o
##d
##l
##u
##c
##m
##g
##w
##f
##,
##b
##.
##p
##y
##k
##v
##z
##S
##I
##A
##ü
##T
##D
##ä
##W
##B
##E
##M
##H
##G
##j
##F
##K
##ö
##P
##x
##L
##N
##R
##ß
##U
##V
##C
##O
##J
##Z
##?
##q
##'
##Y
##-
##Ä
##Ü
##Q
##"
##’
##X
##0
##Ö
##1
##2
##:
##;
##9
##5
##é
##8
##3
##4
##“
##7
##”
##6
##%
##(
##)
##/
##!
##&
##è
##æ
##ł
##à
##â
##ń
##$
##á
##–
##ç
##‘
##ع
##β
##ó
##€
##—
##→
##ô
##😛
##ï
##*
##😊
##í
##ō
##+
##å
##ê
##🙂
##ě
##š
##ú
##`
##[
##]
##Ã
##û
##Ś
##ś
##Š
##😦
##£
##¦
##»
##ñ
##ò
##ø
##ā
##č
##œ
##ș
##−
##❤
##^
##Æ
##É
##ã
##ī
##ň
##и
##⁄
##>
##_
